{
  "token_to_idx": {
    "\n": 0,
    " ": 1,
    "!": 2,
    "\"": 3,
    "&": 4,
    "'": 5,
    "(": 6,
    ")": 7,
    ",": 8,
    "-": 9,
    ".": 10,
    "/": 11,
    "0": 12,
    "1": 13,
    "2": 14,
    "3": 15,
    "4": 16,
    "5": 17,
    "6": 18,
    "8": 19,
    "9": 20,
    ":": 21,
    ";": 22,
    "?": 23,
    "A": 24,
    "B": 25,
    "C": 26,
    "D": 27,
    "E": 28,
    "F": 29,
    "G": 30,
    "H": 31,
    "I": 32,
    "J": 33,
    "K": 34,
    "L": 35,
    "M": 36,
    "N": 37,
    "O": 38,
    "P": 39,
    "Q": 40,
    "R": 41,
    "S": 42,
    "T": 43,
    "U": 44,
    "V": 45,
    "W": 46,
    "X": 47,
    "Y": 48,
    "\\": 49,
    "_": 50,
    "a": 51,
    "b": 52,
    "c": 53,
    "d": 54,
    "e": 55,
    "f": 56,
    "g": 57,
    "h": 58,
    "i": 59,
    "j": 60,
    "k": 61,
    "l": 62,
    "m": 63,
    "n": 64,
    "o": 65,
    "p": 66,
    "q": 67,
    "r": 68,
    "s": 69,
    "t": 70,
    "u": 71,
    "v": 72,
    "w": 73,
    "x": 74,
    "y": 75,
    "z": 76,
    "{": 77,
    "|": 78,
    "}": 79,
    " ": 80,
    "॥": 81,
    "ఁ": 82,
    "ం": 83,
    "ః": 84,
    "అ": 85,
    "ఆ": 86,
    "ఇ": 87,
    "ఈ": 88,
    "ఉ": 89,
    "ఊ": 90,
    "ఋ": 91,
    "ఎ": 92,
    "ఏ": 93,
    "ఐ": 94,
    "ఒ": 95,
    "ఓ": 96,
    "ఔ": 97,
    "క": 98,
    "ఖ": 99,
    "గ": 100,
    "ఘ": 101,
    "ఙ": 102,
    "చ": 103,
    "ఛ": 104,
    "జ": 105,
    "ఝ": 106,
    "ఞ": 107,
    "ట": 108,
    "ఠ": 109,
    "డ": 110,
    "ఢ": 111,
    "ణ": 112,
    "త": 113,
    "థ": 114,
    "ద": 115,
    "ధ": 116,
    "న": 117,
    "఩": 118,
    "ప": 119,
    "ఫ": 120,
    "బ": 121,
    "భ": 122,
    "మ": 123,
    "య": 124,
    "ర": 125,
    "ల": 126,
    "ళ": 127,
    "వ": 128,
    "శ": 129,
    "ష": 130,
    "స": 131,
    "హ": 132,
    "఺": 133,
    "఻": 134,
    "ా": 135,
    "ి": 136,
    "ీ": 137,
    "ు": 138,
    "ూ": 139,
    "ృ": 140,
    "ౄ": 141,
    "ె": 142,
    "ే": 143,
    "ై": 144,
    "ొ": 145,
    "ో": 146,
    "ౌ": 147,
    "్": 148,
    "ౖ": 149,
    "ౙ": 150,
    "౦": 151,
    "౧": 152,
    "౨": 153,
    "౩": 154,
    "౪": 155,
    "౫": 156,
    "౭": 157,
    "౮": 158,
    "‌": 159,
    "–": 160,
    "’": 161,
    "“": 162,
    "”": 163,
    "…": 164,
    "ి ": 165,
    "ు ": 166,
    "ే ": 167,
    "ా ": 168,
    "..": 169,
    "\n\n": 170,
    "న్": 171,
    "ో ": 172,
    "న్న": 173,
    "  ": 174,
    "ంద": 175,
    "ాల": 176,
    "ుల": 177,
    "ం ": 178,
    "్ల": 179,
    "నీ": 180,
    "ంట": 181,
    "రా": 182,
    "రి": 183,
    "ని": 184,
    "ప్": 185,
    "ా\n": 186,
    "స్": 187,
    "ిల": 188,
    "ుక": 189,
    "    ": 190,
    "ెల": 191,
    " మ": 192,
    "వ్": 193,
    "ని ": 194,
    "న ": 195,
    "ార": 196,
    "నా ": 197,
    "్య": 198,
    "ంత": 199,
    "క్": 200,
    " ప": 201,
    "నా": 202,
    "ను": 203,
    "వ్వ": 204,
    "ంచ": 205,
    " క": 206,
    "ట్": 207,
    "ండ": 208,
    "ల్ల": 209,
    "్మ": 210,
    "ే\n": 211,
    "ంగ": 212,
    "్చ": 213,
    "వి": 214,
    "రే": 215,
    "వే": 216,
    "స్త": 217,
    " చ": 218,
    "మ్మ": 219,
    "...": 220,
    "లే": 221,
    "రు": 222,
    "గు": 223,
    "ట్ట": 224,
    "మా": 225,
    "ను ": 226,
    "నే": 227,
    "  ": 228,
    "చ్చ": 229,
    "ము": 230,
    "డి": 231,
    "ర్": 232,
    "సి": 233,
    "య్య": 234,
    "వా": 235,
    " \n": 236,
    "ది": 237,
    "నే ": 238,
    "ద్": 239,
    "ప్ప": 240,
    "ు\n": 241,
    " త": 242,
    "కల": 243,
    "an": 244,
    " స": 245,
    "దా": 246,
    ": ": 247,
    "ున్న": 248,
    "కా": 249,
    "పో": 250,
    "్ ": 251,
    "క్క": 252,
    "లో ": 253,
    "రి ": 254,
    "ళ్": 255,
    "కు ": 256,
    "ి\n": 257,
    "ప్రే": 258,
    "ిక": 259,
    "ళ్ళ": 260,
    "ం\n": 261,
    "లో": 262,
    "గా ": 263,
    "చే": 264,
    "..\n": 265,
    "ించ": 266,
    "ప్రేమ": 267,
    "ది ": 268,
    "డు": 269,
    " అ": 270,
    "గా": 271,
    "చి": 272,
    " వ": 273,
    "చూ": 274,
    "త్": 275,
    "e ": 276,
    "మన": 277,
    "దు": 278,
    "పా": 279,
    "దే": 280,
    "కో": 281,
    "ri": 282,
    "a ": 283,
    "డు ": 284,
    "ెలి": 285,
    "కు": 286,
    "నువ్వ": 287,
    "నీ ": 288,
    "ంటే ": 289,
    "సా": 290,
    "ద్ద": 291,
    "లా": 292,
    "పు": 293,
    "తా": 294,
    "గి": 295,
    "కొ": 296,
    "వు": 297,
    "ీ ": 298,
    "వె": 299,
    "్ర": 300,
    "తో": 301,
    "చె": 302,
    ".. ": 303,
    "al": 304,
    "ై ": 305,
    "లు ": 306,
    "ంది ": 307,
    "        ": 308,
    "    ": 309,
    "బా": 310,
    "ఈ ": 311,
    "రు ": 312,
    "ూ ": 313,
    "పె": 314,
    "ar": 315,
    "తి": 316,
    "మి": 317,
    "లి": 318,
    "రె": 319,
    "మే": 320,
    "ులు ": 321,
    " గ": 322,
    "am": 323,
    "సు": 324,
    "జా": 325,
    "ో\n": 326,
    "in": 327,
    "పి": 328,
    "టి ": 329,
    "నా\n": 330,
    "ిల్ల": 331,
    "i ": 332,
    "er": 333,
    "ాయ": 334,
    "వే ": 335,
    "తు": 336,
    "us": 337,
    "తీ": 338,
    "డి ": 339,
    "మే ": 340,
    "మై": 341,
    "కి ": 342,
    "కే ": 343,
    "సే ": 344,
    "క ": 345,
    "రా ": 346,
    "||": 347,
    "వర": 348,
    "ుకు": 349,
    "th": 350,
    "త్త": 351,
    "ాలు ": 352,
    "సి ": 353,
    "ె ": 354,
    "కి": 355,
    "\n    ": 356,
    "మా ": 357,
    "అంద": 358,
    "లా ": 359,
    "as": 360,
    "ల ": 361,
    "స్తా": 362,
    ", ": 363,
    "వు ": 364,
    "....": 365,
    "పు ": 366,
    "u ": 367,
    "సే": 368,
    "ెలు": 369,
    "తో ": 370,
    "క్ష": 371,
    "నిన్న": 372,
    "గా\n": 373,
    "తే ": 374,
    "లు": 375,
    "యి": 376,
    "పూ": 377,
    "గుండ": 378,
    "రాగ": 379,
    "ుకో": 380,
    "ic": 381,
    "గో": 382,
    "కన్న": 383,
    "గ్": 384,
    "పొ": 385,
    "ప్ర": 386,
    "లే ": 387,
    "పుల": 388,
    "t ": 389,
    "య్": 390,
    "ాలి ": 391,
    "..\n\n": 392,
    "నవ్వ": 393,
    "తి ": 394,
    "...\n": 395,
    "రే ": 396,
    "ెల్ల": 397,
    "Mus": 398,
    "పై": 399,
    "మనస": 400,
    "య్ ": 401,
    "Music": 402,
    "డే ": 403,
    "నన్న": 404,
    "ing": 405,
    "తెలి": 406,
    "ంది": 407,
    "యా": 408,
    "నాల": 409,
    "తొ": 410,
    "గ ": 411,
    "ఆ ": 412,
    "మె": 413,
    "ము ": 414,
    "దిల": 415,
    "చ్చి": 416,
    "ric": 417,
    "a\n": 418,
    "రాజ": 419,
    "yric": 420,
    "ాట": 421,
    "Lyric": 422,
    "దీ": 423,
    "దు ": 424,
    " ము": 425,
    "దే ": 426,
    " చే": 427,
    "కాల": 428,
    "మీ": 429,
    "... ": 430,
    "ప్రా": 431,
    "s ": 432,
    "ావ": 433,
    "y ": 434,
    "రో": 435,
    "ad": 436,
    "ఒక": 437,
    "ుల్ల": 438,
    "ఓ ": 439,
    "ువ": 440,
    "ంధ": 441,
    "గే": 442,
    "బ్": 443,
    "ారి ": 444,
    "నుల": 445,
    "వీ": 446,
    "మొ": 447,
    "Sing": 448,
    "ంక": 449,
    "\nఅ": 450,
    "ందుక": 451,
    " \n\n": 452,
    "ం\n\n": 453,
    "Singer": 454,
    "ణం ": 455,
    "o ": 456,
    "గే ": 457,
    "ీత": 458,
    "తె": 459,
    "న్నా": 460,
    "లవ్": 461,
    "ికి ": 462,
    "పే": 463,
    "న్ని ": 464,
    "హో": 465,
    "మల్ల": 466,
    "ంది\n": 467,
    "లి ": 468,
    "రా\n": 469,
    "ప్పు": 470,
    "రంగ": 471,
    " బ": 472,
    "వేళ": 473,
    "న్నెల": 474,
    "ుకున్న": 475,
    "ష్": 476,
    "యి ": 477,
    "తే": 478,
    "ిలి": 479,
    "దో ": 480,
    "దా ": 481,
    "మో": 482,
    "en": 483,
    "is": 484,
    "దయ": 485,
    "మాట": 486,
    "ని\n": 487,
    "మి ": 488,
    "ైనా ": 489,
    "ర ": 490,
    "మార": 491,
    "ఎద": 492,
    "స్తే ": 493,
    "రం ": 494,
    " చి": 495,
    "వల": 496,
    "పించ": 497,
    "జీ": 498,
    "రామ": 499,
    "వాల": 500,
    "ch": 501,
    "ంతా ": 502,
    "ిలో ": 503,
    "ంటి ": 504,
    "రూ": 505,
    "ంటా": 506,
    "పాల": 507,
    "తల": 508,
    "\n\nచ": 509,
    "డ్": 510,
    "యే ": 511
  },
  "idx_to_token": {
    "0": "\n",
    "1": " ",
    "2": "!",
    "3": "\"",
    "4": "&",
    "5": "'",
    "6": "(",
    "7": ")",
    "8": ",",
    "9": "-",
    "10": ".",
    "11": "/",
    "12": "0",
    "13": "1",
    "14": "2",
    "15": "3",
    "16": "4",
    "17": "5",
    "18": "6",
    "19": "8",
    "20": "9",
    "21": ":",
    "22": ";",
    "23": "?",
    "24": "A",
    "25": "B",
    "26": "C",
    "27": "D",
    "28": "E",
    "29": "F",
    "30": "G",
    "31": "H",
    "32": "I",
    "33": "J",
    "34": "K",
    "35": "L",
    "36": "M",
    "37": "N",
    "38": "O",
    "39": "P",
    "40": "Q",
    "41": "R",
    "42": "S",
    "43": "T",
    "44": "U",
    "45": "V",
    "46": "W",
    "47": "X",
    "48": "Y",
    "49": "\\",
    "50": "_",
    "51": "a",
    "52": "b",
    "53": "c",
    "54": "d",
    "55": "e",
    "56": "f",
    "57": "g",
    "58": "h",
    "59": "i",
    "60": "j",
    "61": "k",
    "62": "l",
    "63": "m",
    "64": "n",
    "65": "o",
    "66": "p",
    "67": "q",
    "68": "r",
    "69": "s",
    "70": "t",
    "71": "u",
    "72": "v",
    "73": "w",
    "74": "x",
    "75": "y",
    "76": "z",
    "77": "{",
    "78": "|",
    "79": "}",
    "80": " ",
    "81": "॥",
    "82": "ఁ",
    "83": "ం",
    "84": "ః",
    "85": "అ",
    "86": "ఆ",
    "87": "ఇ",
    "88": "ఈ",
    "89": "ఉ",
    "90": "ఊ",
    "91": "ఋ",
    "92": "ఎ",
    "93": "ఏ",
    "94": "ఐ",
    "95": "ఒ",
    "96": "ఓ",
    "97": "ఔ",
    "98": "క",
    "99": "ఖ",
    "100": "గ",
    "101": "ఘ",
    "102": "ఙ",
    "103": "చ",
    "104": "ఛ",
    "105": "జ",
    "106": "ఝ",
    "107": "ఞ",
    "108": "ట",
    "109": "ఠ",
    "110": "డ",
    "111": "ఢ",
    "112": "ణ",
    "113": "త",
    "114": "థ",
    "115": "ద",
    "116": "ధ",
    "117": "న",
    "118": "఩",
    "119": "ప",
    "120": "ఫ",
    "121": "బ",
    "122": "భ",
    "123": "మ",
    "124": "య",
    "125": "ర",
    "126": "ల",
    "127": "ళ",
    "128": "వ",
    "129": "శ",
    "130": "ష",
    "131": "స",
    "132": "హ",
    "133": "఺",
    "134": "఻",
    "135": "ా",
    "136": "ి",
    "137": "ీ",
    "138": "ు",
    "139": "ూ",
    "140": "ృ",
    "141": "ౄ",
    "142": "ె",
    "143": "ే",
    "144": "ై",
    "145": "ొ",
    "146": "ో",
    "147": "ౌ",
    "148": "్",
    "149": "ౖ",
    "150": "ౙ",
    "151": "౦",
    "152": "౧",
    "153": "౨",
    "154": "౩",
    "155": "౪",
    "156": "౫",
    "157": "౭",
    "158": "౮",
    "159": "‌",
    "160": "–",
    "161": "’",
    "162": "“",
    "163": "”",
    "164": "…",
    "165": "ి ",
    "166": "ు ",
    "167": "ే ",
    "168": "ా ",
    "169": "..",
    "170": "\n\n",
    "171": "న్",
    "172": "ో ",
    "173": "న్న",
    "174": "  ",
    "175": "ంద",
    "176": "ాల",
    "177": "ుల",
    "178": "ం ",
    "179": "్ల",
    "180": "నీ",
    "181": "ంట",
    "182": "రా",
    "183": "రి",
    "184": "ని",
    "185": "ప్",
    "186": "ా\n",
    "187": "స్",
    "188": "ిల",
    "189": "ుక",
    "190": "    ",
    "191": "ెల",
    "192": " మ",
    "193": "వ్",
    "194": "ని ",
    "195": "న ",
    "196": "ార",
    "197": "నా ",
    "198": "్య",
    "199": "ంత",
    "200": "క్",
    "201": " ప",
    "202": "నా",
    "203": "ను",
    "204": "వ్వ",
    "205": "ంచ",
    "206": " క",
    "207": "ట్",
    "208": "ండ",
    "209": "ల్ల",
    "210": "్మ",
    "211": "ే\n",
    "212": "ంగ",
    "213": "్చ",
    "214": "వి",
    "215": "రే",
    "216": "వే",
    "217": "స్త",
    "218": " చ",
    "219": "మ్మ",
    "220": "...",
    "221": "లే",
    "222": "రు",
    "223": "గు",
    "224": "ట్ట",
    "225": "మా",
    "226": "ను ",
    "227": "నే",
    "228": "  ",
    "229": "చ్చ",
    "230": "ము",
    "231": "డి",
    "232": "ర్",
    "233": "సి",
    "234": "య్య",
    "235": "వా",
    "236": " \n",
    "237": "ది",
    "238": "నే ",
    "239": "ద్",
    "240": "ప్ప",
    "241": "ు\n",
    "242": " త",
    "243": "కల",
    "244": "an",
    "245": " స",
    "246": "దా",
    "247": ": ",
    "248": "ున్న",
    "249": "కా",
    "250": "పో",
    "251": "్ ",
    "252": "క్క",
    "253": "లో ",
    "254": "రి ",
    "255": "ళ్",
    "256": "కు ",
    "257": "ి\n",
    "258": "ప్రే",
    "259": "ిక",
    "260": "ళ్ళ",
    "261": "ం\n",
    "262": "లో",
    "263": "గా ",
    "264": "చే",
    "265": "..\n",
    "266": "ించ",
    "267": "ప్రేమ",
    "268": "ది ",
    "269": "డు",
    "270": " అ",
    "271": "గా",
    "272": "చి",
    "273": " వ",
    "274": "చూ",
    "275": "త్",
    "276": "e ",
    "277": "మన",
    "278": "దు",
    "279": "పా",
    "280": "దే",
    "281": "కో",
    "282": "ri",
    "283": "a ",
    "284": "డు ",
    "285": "ెలి",
    "286": "కు",
    "287": "నువ్వ",
    "288": "నీ ",
    "289": "ంటే ",
    "290": "సా",
    "291": "ద్ద",
    "292": "లా",
    "293": "పు",
    "294": "తా",
    "295": "గి",
    "296": "కొ",
    "297": "వు",
    "298": "ీ ",
    "299": "వె",
    "300": "్ర",
    "301": "తో",
    "302": "చె",
    "303": ".. ",
    "304": "al",
    "305": "ై ",
    "306": "లు ",
    "307": "ంది ",
    "308": "        ",
    "309": "    ",
    "310": "బా",
    "311": "ఈ ",
    "312": "రు ",
    "313": "ూ ",
    "314": "పె",
    "315": "ar",
    "316": "తి",
    "317": "మి",
    "318": "లి",
    "319": "రె",
    "320": "మే",
    "321": "ులు ",
    "322": " గ",
    "323": "am",
    "324": "సు",
    "325": "జా",
    "326": "ో\n",
    "327": "in",
    "328": "పి",
    "329": "టి ",
    "330": "నా\n",
    "331": "ిల్ల",
    "332": "i ",
    "333": "er",
    "334": "ాయ",
    "335": "వే ",
    "336": "తు",
    "337": "us",
    "338": "తీ",
    "339": "డి ",
    "340": "మే ",
    "341": "మై",
    "342": "కి ",
    "343": "కే ",
    "344": "సే ",
    "345": "క ",
    "346": "రా ",
    "347": "||",
    "348": "వర",
    "349": "ుకు",
    "350": "th",
    "351": "త్త",
    "352": "ాలు ",
    "353": "సి ",
    "354": "ె ",
    "355": "కి",
    "356": "\n    ",
    "357": "మా ",
    "358": "అంద",
    "359": "లా ",
    "360": "as",
    "361": "ల ",
    "362": "స్తా",
    "363": ", ",
    "364": "వు ",
    "365": "....",
    "366": "పు ",
    "367": "u ",
    "368": "సే",
    "369": "ెలు",
    "370": "తో ",
    "371": "క్ష",
    "372": "నిన్న",
    "373": "గా\n",
    "374": "తే ",
    "375": "లు",
    "376": "యి",
    "377": "పూ",
    "378": "గుండ",
    "379": "రాగ",
    "380": "ుకో",
    "381": "ic",
    "382": "గో",
    "383": "కన్న",
    "384": "గ్",
    "385": "పొ",
    "386": "ప్ర",
    "387": "లే ",
    "388": "పుల",
    "389": "t ",
    "390": "య్",
    "391": "ాలి ",
    "392": "..\n\n",
    "393": "నవ్వ",
    "394": "తి ",
    "395": "...\n",
    "396": "రే ",
    "397": "ెల్ల",
    "398": "Mus",
    "399": "పై",
    "400": "మనస",
    "401": "య్ ",
    "402": "Music",
    "403": "డే ",
    "404": "నన్న",
    "405": "ing",
    "406": "తెలి",
    "407": "ంది",
    "408": "యా",
    "409": "నాల",
    "410": "తొ",
    "411": "గ ",
    "412": "ఆ ",
    "413": "మె",
    "414": "ము ",
    "415": "దిల",
    "416": "చ్చి",
    "417": "ric",
    "418": "a\n",
    "419": "రాజ",
    "420": "yric",
    "421": "ాట",
    "422": "Lyric",
    "423": "దీ",
    "424": "దు ",
    "425": " ము",
    "426": "దే ",
    "427": " చే",
    "428": "కాల",
    "429": "మీ",
    "430": "... ",
    "431": "ప్రా",
    "432": "s ",
    "433": "ావ",
    "434": "y ",
    "435": "రో",
    "436": "ad",
    "437": "ఒక",
    "438": "ుల్ల",
    "439": "ఓ ",
    "440": "ువ",
    "441": "ంధ",
    "442": "గే",
    "443": "బ్",
    "444": "ారి ",
    "445": "నుల",
    "446": "వీ",
    "447": "మొ",
    "448": "Sing",
    "449": "ంక",
    "450": "\nఅ",
    "451": "ందుక",
    "452": " \n\n",
    "453": "ం\n\n",
    "454": "Singer",
    "455": "ణం ",
    "456": "o ",
    "457": "గే ",
    "458": "ీత",
    "459": "తె",
    "460": "న్నా",
    "461": "లవ్",
    "462": "ికి ",
    "463": "పే",
    "464": "న్ని ",
    "465": "హో",
    "466": "మల్ల",
    "467": "ంది\n",
    "468": "లి ",
    "469": "రా\n",
    "470": "ప్పు",
    "471": "రంగ",
    "472": " బ",
    "473": "వేళ",
    "474": "న్నెల",
    "475": "ుకున్న",
    "476": "ష్",
    "477": "యి ",
    "478": "తే",
    "479": "ిలి",
    "480": "దో ",
    "481": "దా ",
    "482": "మో",
    "483": "en",
    "484": "is",
    "485": "దయ",
    "486": "మాట",
    "487": "ని\n",
    "488": "మి ",
    "489": "ైనా ",
    "490": "ర ",
    "491": "మార",
    "492": "ఎద",
    "493": "స్తే ",
    "494": "రం ",
    "495": " చి",
    "496": "వల",
    "497": "పించ",
    "498": "జీ",
    "499": "రామ",
    "500": "వాల",
    "501": "ch",
    "502": "ంతా ",
    "503": "ిలో ",
    "504": "ంటి ",
    "505": "రూ",
    "506": "ంటా",
    "507": "పాల",
    "508": "తల",
    "509": "\n\nచ",
    "510": "డ్",
    "511": "యే "
  },
  "vocab_size": 512
}